TRT-100600-EntropyCalibration2
images: 3bf80000
128: 3db2e5dd
129: 3c010a14
130: 3d904d48
131: 3e9353d5
132: 3c010a14
133: 3e5af7a7
134: 3e741dcd
135: 3c010a14
136: 3cf7704e
330: 3c010a14
532: 3e0c7a1c
291: 3ca753f4
542: 3de51134
ONNXTRT_ShapeShuffle_288_output: 3c010a14
354: 3e880d71
137: 3d36a221
337: 3c010a14
583_output: 3c810a14
328: 3d45c725
138: 3cf6b283
139: 3e0805dd
140: 3c010a14
141: 3d893d0b
142: 3daed74d
143: 3c010a14
144: 3dbbe314
145: 3d70e68e
146: 3d70e68e
147: 3d608b1d
148: 3c00e9d4
149: 3d1a132b
150: 3d1fc423
151: 3c029080
152: 3d0257be
153: 3d25c249
154: 3bf7fd2d
155: 3cc1849c
335: 3cd372bb
535: 3bbcf4d7
566: 40a09b1a
295: 3cb561dc
296: 3d954e42
533: 3e0c7a1c
156: 3cd57531
501: 3e1d4449
332: 3df1f7cd
326: 3ddbc0a3
157: 3c743e7d
158: 3cc1938d
159: 3bf06488
160: 3ca6274f
161: 3d3b2105
162: 3c149d3f
163: 3cd2cbcc
164: 3d0b5885
165: 3d2bf315
166: 3c028ae8
167: 3c40cb84
168: 3d641e9f
169: 3c00b036
170: 3d101c9a
171: 3d6dceed
172: 3d241c71
173: 3d7cdcd3
174: 3c01ef6e
175: 3c7f6560
176: 3d618491
177: 3c011cbf
178: 3ca41043
179: 3d927e5f
180: 3c050255
181: 3cd45c5c
293: 3c010472
534: 3bbcf4d7
ONNXTRT_Broadcast_211_output: 3b810a14
ONNXTRT_Broadcast_209_output: 3b810a14
554: 3dd8497f
557: 3de4c177
182: 3d01f42d
301: 3d924cbf
497: 3e1d4449
416: 3f204a85
183: 3c99fd38
184: 3d649ec9
185: 3c00265e
186: 3c996df9
187: 3d693fc3
188: 3c013523
189: 3c9a038f
190: 3d4f525e
191: 3d6b3475
192: 3c002522
193: 3c73ab18
194: 3da19605
195: 3c010a14
196: 3d454897
197: 3d8f575a
198: 3d020ce5
199: 3d7d430c
200: 3c06c5b9
201: 3ca7469f
202: 3d804014
203: 3c0100ba
204: 3cb1f6c1
205: 3da6b64d
206: 3c01118f
207: 3d14fcf8
350: 3d27d32f
299: 3ceb3a9c
563: 3f3a7267
513: 3f204a85
ONNXTRT_Broadcast_454_output: 3c810a14
ONNXTRT_ShapeShuffle_214_output: 3e010a14
208: 3d29a833
442: 3e9f4871
460: 3e9f4871
Softmax_369_output: 3bbcf4d7
209: 3c9b8d89
210: 3d9ab46a
211: 3c01104e
212: 3d037ede
213: 3dd73c0e
214: 3c011221
215: 3d4628e7
216: 3da6c6d7
217: 3d26a9a7
218: 3da7e5cf
219: 3c00e2bc
220: 3ceb6d99
221: 3d633722
222: 3c007ec7
223: 3d444e84
224: 3d444e84
225: 3d444e84
226: 3d444e84
227: 3d6b36df
228: 3d8de04e
229: 3c011038
230: 3cb561dc
235: 3cb561dc
236: 3cb561dc
237: 3d7a0205
238: 3c00ec8d
239: 3cc8013b
307: 3d058bb3
500: 3e1d4449
514: 3e810a14
478: 3e193bf8
564: 3e5ee6ed
309: 3c010a7d
240: 3cd79a0f
486: 3e1d4449
292: 3d964d9a
334: 3c00ede0
241: 3cd5701e
242: 3d8be7c5
243: 3c00ce38
244: 3c9262c8
245: 3d77c730
246: 3c010400
247: 3cb201e6
248: 3cb201e6
249: 3d83b317
250: 3c008f91
251: 3c8fe127
256: 3c8fe127
257: 3c7f6560
258: 3d75f732
259: 3bfc8df9
260: 3c9b5da2
ONNXTRT_ShapeShuffle_306_output: 3e810a14
558: 3f1fd523
512: 3e810a14
(Unnamed Layer* 513) [Constant]_output: 3e810a14
565: 3f33dbac
ONNXTRT_flattenTensor_output: 3e0c7a1c
261: 3c9a606c
302: 3c00f149
504: 3e1d4449
output0: 40a09b1a
262: 3cc21c14
263: 3d301669
264: 3bfedf4b
265: 3c751bbf
266: 3d51c511
267: 3c00538f
268: 3d116495
269: 3ce85a2d
270: 3d51f2ab
271: 3c009b3e
272: 3cc18fea
273: 3d65005c
311: 3db60c7f
318: 3d8d5dfb
274: 3c00f1da
312: 3c0087d4
319: 3c0074e8
275: 3cd507da
313: 3c727314
320: 3c89179f
276: 3cd507da
314: 3e55132c
321: 3e7c4f74
277: 3d77fc2f
315: 3c010a14
322: 3c010a14
278: 3c00e604
316: 3e20b52c
323: 3e2d6b0e
279: 3cb10260
317: 3e0c7a1c
324: 3e458fd9
ONNXTRT_Broadcast_303_output: 3b810a14
480: 3e1d4449
516: 3e810a14
496: 3e1d4449
336: 3e973af9
ONNXTRT_Broadcast_301_output: 3b810a14
280: 3cd3877d
308: 3e0ce450
567: 3aec2575
436: 3e9f4871
281: 3cb10260
325: 3e424061
282: 3d6f3e07
503: 3e1d4449
484: 3e193bf8
283: 3bfcf4c5
ONNXTRT_ShapeShuffle_298_output: 3c010a14
329: 3e80d61c
536: 3de51134
(Unnamed Layer* 397) [Constant]_output: 3e010a14
ONNXTRT_Broadcast_461_output: 3e810a14
457: 3e9f4871
284: 3c814f2e
353: 3decdfaa
294: 3cb2bfd7
518: 3e668001
306: 3d483383
285: 3da8310b
305: 3c011221
459: 3e9f4871
298: 3ceb3a9c
388_output: 0
389_output: 3c010a14
ONNXTRT_ShapeShuffle_206_output: 3c010a14
327: 3c00f1cd
338: 3e12d817
333: 3d9ecfac
440: 3e9d4449
415: 3f204a85
434: 3e9d4449
390: 3f1f4871
ONNXTRT_ShapeShuffle_104_output: 3c010a14
560: 3fba7267
502: 3e1d4449
300: 3cc13ccd
304: 3dbcb5a4
468: 3e010a14
517: 3e0c7a1c
453: 3e9f4871
396: 3f1f4871
ONNXTRT_ShapeShuffle_114_output: 3c010a14
559: 3f2195ef
286: 3c00f1b1
365: 3e424061
391_output: 3b810a14
ONNXTRT_Broadcast_output: 3b810a14
392: 3f204a85
ONNXTRT_Broadcast_119_output: 3b810a14
398: 3f204a85
452: 3e9f4871
348: 3dfd898f
287: 3d0152d1
(Unnamed Layer* 274) [Constant]_output: 3d810a14
ONNXTRT_ShapeShuffle_122_output: 3d810a14
424: 3d810a14
303: 3c792d52
515: 3f204a85
340: 3e81e901
379: 3e880d71
408: 3f204a85
412: 3f204a85
288: 3d0152d1
355: 3e880d71
289: 3da6f0b9
346: 3dc683e9
352: 3c010a14
ONNXTRT_ShapeShuffle_196_output: 3c010a14
506: 3e1d4449
345: 3c010a14
347: 3dd6531a
351: 3eb4fbd5
414: 3f204a85
380: 3e6570b4
418: 3f204a85
409: 3f204a85
462: 3e9f4871
341: 3dea8c6e
343: 3d4195cb
339: 3e813422
456: 3e9f4871
342: 3c011206
310: 3c3d4da7
344: 3e95e75c
349: 3c0315e2
297: 3c00ff83
413: 3f204a85
290: 3c00dafd
458: 3e9f4871
372: 3e81e901
331: 3dc65cf8
543: 3f204a85
